#ifndef NN_SSE_RMS_10_V2_H
#define NN_SSE_RMS_10_V2_H


unsigned int NN_SSE_RMS_10_v2_len = 3408;
unsigned char NN_SSE_RMS_10_v2[] = {
 0x1c, 0x00, 0x00, 0x00, 0x54, 0x46, 0x4c, 0x33, 0x00, 0x00, 0x12, 0x00,
  0x1c, 0x00, 0x04, 0x00, 0x08, 0x00, 0x0c, 0x00, 0x10, 0x00, 0x14, 0x00,
  0x00, 0x00, 0x18, 0x00, 0x12, 0x00, 0x00, 0x00, 0x03, 0x00, 0x00, 0x00,
  0xbc, 0x0c, 0x00, 0x00, 0x10, 0x02, 0x00, 0x00, 0xf8, 0x01, 0x00, 0x00,
  0x3c, 0x00, 0x00, 0x00, 0x04, 0x00, 0x00, 0x00, 0x01, 0x00, 0x00, 0x00,
  0x0c, 0x00, 0x00, 0x00, 0x08, 0x00, 0x0c, 0x00, 0x04, 0x00, 0x08, 0x00,
  0x08, 0x00, 0x00, 0x00, 0x08, 0x00, 0x00, 0x00, 0x10, 0x00, 0x00, 0x00,
  0x13, 0x00, 0x00, 0x00, 0x6d, 0x69, 0x6e, 0x5f, 0x72, 0x75, 0x6e, 0x74,
  0x69, 0x6d, 0x65, 0x5f, 0x76, 0x65, 0x72, 0x73, 0x69, 0x6f, 0x6e, 0x00,
  0x11, 0x00, 0x00, 0x00, 0xac, 0x01, 0x00, 0x00, 0x90, 0x01, 0x00, 0x00,
  0x5c, 0x01, 0x00, 0x00, 0x38, 0x01, 0x00, 0x00, 0x14, 0x01, 0x00, 0x00,
  0xf0, 0x00, 0x00, 0x00, 0xcc, 0x00, 0x00, 0x00, 0xc0, 0x00, 0x00, 0x00,
  0xac, 0x00, 0x00, 0x00, 0x98, 0x00, 0x00, 0x00, 0x7c, 0x00, 0x00, 0x00,
  0x70, 0x00, 0x00, 0x00, 0x54, 0x00, 0x00, 0x00, 0x48, 0x00, 0x00, 0x00,
  0x34, 0x00, 0x00, 0x00, 0x20, 0x00, 0x00, 0x00, 0x04, 0x00, 0x00, 0x00,
  0xba, 0xfc, 0xff, 0xff, 0x04, 0x00, 0x00, 0x00, 0x06, 0x00, 0x00, 0x00,
  0x31, 0x2e, 0x31, 0x34, 0x2e, 0x30, 0x00, 0x00, 0x00, 0x00, 0x00, 0x00,
  0x78, 0xf5, 0xff, 0xff, 0x00, 0x00, 0x00, 0x00, 0x00, 0x00, 0x00, 0x00,
  0x00, 0x00, 0x00, 0x00, 0x88, 0xf5, 0xff, 0xff, 0x00, 0x00, 0x00, 0x00,
  0x00, 0x00, 0x00, 0x00, 0x00, 0x00, 0x00, 0x00, 0x98, 0xf5, 0xff, 0xff,
  0x00, 0x00, 0x00, 0x00, 0xfa, 0xfc, 0xff, 0xff, 0x04, 0x00, 0x00, 0x00,
  0x04, 0x00, 0x00, 0x00, 0x6e, 0xfd, 0xff, 0xff, 0x00, 0x00, 0x00, 0x00,
  0x00, 0x00, 0x00, 0x00, 0xb8, 0xf5, 0xff, 0xff, 0x00, 0x00, 0x00, 0x00,
  0x1a, 0xfd, 0xff, 0xff, 0x04, 0x00, 0x00, 0x00, 0x04, 0x00, 0x00, 0x00,
  0x53, 0x03, 0x00, 0x00, 0x00, 0x00, 0x00, 0x00, 0x00, 0x00, 0x00, 0x00,
  0xd8, 0xf5, 0xff, 0xff, 0x00, 0x00, 0x00, 0x00, 0x00, 0x00, 0x00, 0x00,
  0x00, 0x00, 0x00, 0x00, 0xe8, 0xf5, 0xff, 0xff, 0x00, 0x00, 0x00, 0x00,
  0x00, 0x00, 0x00, 0x00, 0x00, 0x00, 0x00, 0x00, 0xf8, 0xf5, 0xff, 0xff,
  0x00, 0x00, 0x00, 0x00, 0x5a, 0xfd, 0xff, 0xff, 0x04, 0x00, 0x00, 0x00,
  0x10, 0x00, 0x00, 0x00, 0x01, 0x00, 0x00, 0x00, 0x01, 0x00, 0x00, 0x00,
  0x0a, 0x00, 0x00, 0x00, 0x03, 0x00, 0x00, 0x00, 0x00, 0x00, 0x00, 0x00,
  0x7a, 0xfd, 0xff, 0xff, 0x04, 0x00, 0x00, 0x00, 0x0c, 0x00, 0x00, 0x00,
  0x00, 0xfe, 0xfa, 0x02, 0xbf, 0x32, 0x02, 0x30, 0xb4, 0x03, 0xcd, 0x7f,
  0x00, 0x00, 0x00, 0x00, 0x00, 0x00, 0x00, 0x00, 0x9a, 0xfd, 0xff, 0xff,
  0x04, 0x00, 0x00, 0x00, 0x0f, 0x00, 0x00, 0x00, 0xf4, 0xd8, 0x32, 0x3e,
  0xf2, 0x23, 0x81, 0x7f, 0x08, 0x81, 0x7f, 0x24, 0xeb, 0x81, 0x8e, 0x00,
  0x00, 0x00, 0x00, 0x00, 0xba, 0xfd, 0xff, 0xff, 0x04, 0x00, 0x00, 0x00,
  0x14, 0x00, 0x00, 0x00, 0x94, 0xff, 0xff, 0xff, 0xc9, 0x01, 0x00, 0x00,
  0x17, 0xde, 0xff, 0xff, 0x5c, 0xfd, 0xff, 0xff, 0x00, 0x00, 0x00, 0x00,
  0xda, 0xfd, 0xff, 0xff, 0x04, 0x00, 0x00, 0x00, 0x19, 0x00, 0x00, 0x00,
  0x11, 0x0b, 0xf9, 0x0f, 0xf4, 0xfb, 0x2a, 0x01, 0x00, 0xc8, 0xe6, 0x27,
  0x00, 0xf4, 0xcc, 0xc6, 0x7f, 0xd9, 0x21, 0xea, 0x54, 0xf6, 0xee, 0xb0,
  0x1f, 0x00, 0x00, 0x00, 0x00, 0x00, 0x00, 0x00, 0x00, 0x00, 0x00, 0x00,
  0x0a, 0xfe, 0xff, 0xff, 0x04, 0x00, 0x00, 0x00, 0x0c, 0x00, 0x00, 0x00,
  0x01, 0x00, 0x00, 0x00, 0x05, 0x00, 0x00, 0x00, 0x05, 0x00, 0x00, 0x00,
  0xc8, 0xf6, 0xff, 0xff, 0x00, 0x00, 0x00, 0x00, 0x0f, 0x00, 0x00, 0x00,
  0x54, 0x4f, 0x43, 0x4f, 0x20, 0x43, 0x6f, 0x6e, 0x76, 0x65, 0x72, 0x74,
  0x65, 0x64, 0x2e, 0x00, 0x01, 0x00, 0x00, 0x00, 0x04, 0x00, 0x00, 0x00,
  0xdc, 0xf5, 0xff, 0xff, 0xfc, 0x01, 0x00, 0x00, 0xf0, 0x01, 0x00, 0x00,
  0xe4, 0x01, 0x00, 0x00, 0x04, 0x00, 0x00, 0x00, 0x06, 0x00, 0x00, 0x00,
  0x88, 0x01, 0x00, 0x00, 0x2c, 0x01, 0x00, 0x00, 0xc4, 0x00, 0x00, 0x00,
  0x7c, 0x00, 0x00, 0x00, 0x34, 0x00, 0x00, 0x00, 0x10, 0x00, 0x00, 0x00,
  0x00, 0x00, 0x0a, 0x00, 0x10, 0x00, 0x04, 0x00, 0x08, 0x00, 0x0c, 0x00,
  0x0a, 0x00, 0x00, 0x00, 0x04, 0x00, 0x00, 0x00, 0x10, 0x00, 0x00, 0x00,
  0x04, 0x00, 0x00, 0x00, 0x01, 0x00, 0x00, 0x00, 0x0d, 0x00, 0x00, 0x00,
  0x01, 0x00, 0x00, 0x00, 0x0a, 0x00, 0x00, 0x00, 0xca, 0xff, 0xff, 0xff,
  0x00, 0x00, 0x00, 0x08, 0x02, 0x00, 0x00, 0x00, 0x18, 0x00, 0x00, 0x00,
  0x0c, 0x00, 0x00, 0x00, 0x04, 0x00, 0x00, 0x00, 0x60, 0xf7, 0xff, 0xff,
  0x01, 0x00, 0x00, 0x00, 0x0a, 0x00, 0x00, 0x00, 0x03, 0x00, 0x00, 0x00,
  0x05, 0x00, 0x00, 0x00, 0x0b, 0x00, 0x00, 0x00, 0x0c, 0x00, 0x00, 0x00,
  0x00, 0x00, 0x0e, 0x00, 0x18, 0x00, 0x08, 0x00, 0x0c, 0x00, 0x10, 0x00,
  0x07, 0x00, 0x14, 0x00, 0x0e, 0x00, 0x00, 0x00, 0x00, 0x00, 0x00, 0x11,
  0x03, 0x00, 0x00, 0x00, 0x2c, 0x00, 0x00, 0x00, 0x20, 0x00, 0x00, 0x00,
  0x04, 0x00, 0x00, 0x00, 0xfe, 0xfe, 0xff, 0xff, 0x04, 0x00, 0x00, 0x00,
  0x03, 0x00, 0x00, 0x00, 0x01, 0x00, 0x00, 0x00, 0x05, 0x00, 0x00, 0x00,
  0x05, 0x00, 0x00, 0x00, 0x01, 0x00, 0x00, 0x00, 0x05, 0x00, 0x00, 0x00,
  0x02, 0x00, 0x00, 0x00, 0x07, 0x00, 0x00, 0x00, 0x08, 0x00, 0x00, 0x00,
  0x52, 0xff, 0xff, 0xff, 0x00, 0x00, 0x00, 0x02, 0x01, 0x00, 0x00, 0x00,
  0x38, 0x00, 0x00, 0x00, 0x2c, 0x00, 0x00, 0x00, 0x14, 0x00, 0x00, 0x00,
  0x00, 0x00, 0x0e, 0x00, 0x14, 0x00, 0x06, 0x00, 0x08, 0x00, 0x0c, 0x00,
  0x10, 0x00, 0x07, 0x00, 0x0e, 0x00, 0x00, 0x00, 0x00, 0x00, 0x01, 0x01,
  0x01, 0x00, 0x00, 0x00, 0x01, 0x00, 0x00, 0x00, 0x05, 0x00, 0x00, 0x00,
  0x01, 0x00, 0x00, 0x00, 0x07, 0x00, 0x00, 0x00, 0x03, 0x00, 0x00, 0x00,
  0x00, 0x00, 0x00, 0x00, 0x06, 0x00, 0x00, 0x00, 0x09, 0x00, 0x00, 0x00,
  0x00, 0x00, 0x0e, 0x00, 0x14, 0x00, 0x00, 0x00, 0x08, 0x00, 0x0c, 0x00,
  0x07, 0x00, 0x10, 0x00, 0x0e, 0x00, 0x00, 0x00, 0x00, 0x00, 0x00, 0x01,
  0x30, 0x00, 0x00, 0x00, 0x24, 0x00, 0x00, 0x00, 0x10, 0x00, 0x00, 0x00,
  0x0c, 0x00, 0x10, 0x00, 0x06, 0x00, 0x08, 0x00, 0x0c, 0x00, 0x07, 0x00,
  0x0c, 0x00, 0x00, 0x00, 0x00, 0x00, 0x01, 0x01, 0x01, 0x00, 0x00, 0x00,
  0x01, 0x00, 0x00, 0x00, 0x01, 0x00, 0x00, 0x00, 0x00, 0x00, 0x00, 0x00,
  0x03, 0x00, 0x00, 0x00, 0x01, 0x00, 0x00, 0x00, 0x03, 0x00, 0x00, 0x00,
  0x04, 0x00, 0x00, 0x00, 0x00, 0x00, 0x0e, 0x00, 0x1a, 0x00, 0x08, 0x00,
  0x0c, 0x00, 0x10, 0x00, 0x07, 0x00, 0x14, 0x00, 0x0e, 0x00, 0x00, 0x00,
  0x00, 0x00, 0x00, 0x11, 0x03, 0x00, 0x00, 0x00, 0x38, 0x00, 0x00, 0x00,
  0x2c, 0x00, 0x00, 0x00, 0x0c, 0x00, 0x00, 0x00, 0x00, 0x00, 0x06, 0x00,
  0x08, 0x00, 0x04, 0x00, 0x06, 0x00, 0x00, 0x00, 0x04, 0x00, 0x00, 0x00,
  0x04, 0x00, 0x00, 0x00, 0x01, 0x00, 0x00, 0x00, 0x01, 0x00, 0x00, 0x00,
  0x0a, 0x00, 0x00, 0x00, 0x03, 0x00, 0x00, 0x00, 0x01, 0x00, 0x00, 0x00,
  0x01, 0x00, 0x00, 0x00, 0x02, 0x00, 0x00, 0x00, 0x0e, 0x00, 0x00, 0x00,
  0x02, 0x00, 0x00, 0x00, 0x01, 0x00, 0x00, 0x00, 0x0d, 0x00, 0x00, 0x00,
  0x01, 0x00, 0x00, 0x00, 0x0e, 0x00, 0x00, 0x00, 0x0f, 0x00, 0x00, 0x00,
  0x08, 0x08, 0x00, 0x00, 0x58, 0x07, 0x00, 0x00, 0xf0, 0x06, 0x00, 0x00,
  0x50, 0x06, 0x00, 0x00, 0xd0, 0x05, 0x00, 0x00, 0x40, 0x05, 0x00, 0x00,
  0x34, 0x04, 0x00, 0x00, 0x88, 0x03, 0x00, 0x00, 0x28, 0x03, 0x00, 0x00,
  0x80, 0x02, 0x00, 0x00, 0xf4, 0x01, 0x00, 0x00, 0x50, 0x01, 0x00, 0x00,
  0xdc, 0x00, 0x00, 0x00, 0x80, 0x00, 0x00, 0x00, 0x04, 0x00, 0x00, 0x00,
  0x42, 0xf8, 0xff, 0xff, 0x00, 0x00, 0x00, 0x09, 0x60, 0x00, 0x00, 0x00,
  0x0d, 0x00, 0x00, 0x00, 0x44, 0x00, 0x00, 0x00, 0x04, 0x00, 0x00, 0x00,
  0x34, 0xf8, 0xff, 0xff, 0x30, 0x00, 0x00, 0x00, 0x24, 0x00, 0x00, 0x00,
  0x18, 0x00, 0x00, 0x00, 0x04, 0x00, 0x00, 0x00, 0x01, 0x00, 0x00, 0x00,
  0x76, 0x00, 0x00, 0x00, 0x00, 0x00, 0x00, 0x00, 0x00, 0x00, 0x00, 0x00,
  0x01, 0x00, 0x00, 0x00, 0x9e, 0x1c, 0x4f, 0x3e, 0x01, 0x00, 0x00, 0x00,
  0x53, 0x7c, 0xe8, 0x3f, 0x01, 0x00, 0x00, 0x00, 0x9e, 0x09, 0x47, 0xc2,
  0x0c, 0x00, 0x00, 0x00, 0x63, 0x6f, 0x6e, 0x76, 0x31, 0x64, 0x5f, 0x69,
  0x6e, 0x70, 0x75, 0x74, 0x00, 0x00, 0x00, 0x00, 0x03, 0x00, 0x00, 0x00,
  0x01, 0x00, 0x00, 0x00, 0x0a, 0x00, 0x00, 0x00, 0x03, 0x00, 0x00, 0x00,
  0xba, 0xf8, 0xff, 0xff, 0x00, 0x00, 0x00, 0x09, 0x44, 0x00, 0x00, 0x00,
  0x07, 0x00, 0x00, 0x00, 0x2c, 0x00, 0x00, 0x00, 0x04, 0x00, 0x00, 0x00,
  0xd4, 0xfa, 0xff, 0xff, 0x18, 0x00, 0x00, 0x00, 0x04, 0x00, 0x00, 0x00,
  0x01, 0x00, 0x00, 0x00, 0x00, 0x00, 0x00, 0x00, 0x00, 0x00, 0x00, 0x00,
  0x00, 0x00, 0x00, 0x00, 0x01, 0x00, 0x00, 0x00, 0x00, 0x00, 0x00, 0x3c,
  0x08, 0x00, 0x00, 0x00, 0x49, 0x64, 0x65, 0x6e, 0x74, 0x69, 0x74, 0x79,
  0x00, 0x00, 0x00, 0x00, 0x02, 0x00, 0x00, 0x00, 0x01, 0x00, 0x00, 0x00,
  0x01, 0x00, 0x00, 0x00, 0x12, 0xf9, 0xff, 0xff, 0x00, 0x00, 0x00, 0x02,
  0x60, 0x00, 0x00, 0x00, 0x0c, 0x00, 0x00, 0x00, 0x2c, 0x00, 0x00, 0x00,
  0x04, 0x00, 0x00, 0x00, 0x2c, 0xfb, 0xff, 0xff, 0x18, 0x00, 0x00, 0x00,
  0x04, 0x00, 0x00, 0x00, 0x01, 0x00, 0x00, 0x00, 0x00, 0x00, 0x00, 0x00,
  0x00, 0x00, 0x00, 0x00, 0x00, 0x00, 0x00, 0x00, 0x01, 0x00, 0x00, 0x00,
  0xbd, 0x90, 0xb8, 0x38, 0x25, 0x00, 0x00, 0x00, 0x30, 0x31, 0x5f, 0x4e,
  0x4e, 0x5f, 0x53, 0x53, 0x45, 0x5f, 0x52, 0x4d, 0x53, 0x5f, 0x31, 0x30,
  0x5f, 0x76, 0x32, 0x2f, 0x64, 0x65, 0x6e, 0x73, 0x65, 0x2f, 0x4d, 0x61,
  0x74, 0x4d, 0x75, 0x6c, 0x5f, 0x62, 0x69, 0x61, 0x73, 0x00, 0x00, 0x00,
  0x01, 0x00, 0x00, 0x00, 0x01, 0x00, 0x00, 0x00, 0x82, 0xf9, 0xff, 0xff,
  0x00, 0x00, 0x00, 0x09, 0x8c, 0x00, 0x00, 0x00, 0x02, 0x00, 0x00, 0x00,
  0x44, 0x00, 0x00, 0x00, 0x04, 0x00, 0x00, 0x00, 0x74, 0xf9, 0xff, 0xff,
  0x30, 0x00, 0x00, 0x00, 0x24, 0x00, 0x00, 0x00, 0x18, 0x00, 0x00, 0x00,
  0x04, 0x00, 0x00, 0x00, 0x01, 0x00, 0x00, 0x00, 0x00, 0x00, 0x00, 0x00,
  0x00, 0x00, 0x00, 0x00, 0x00, 0x00, 0x00, 0x00, 0x01, 0x00, 0x00, 0x00,
  0x5f, 0x8b, 0x0a, 0x3c, 0x01, 0x00, 0x00, 0x00, 0x48, 0x76, 0x89, 0x3f,
  0x01, 0x00, 0x00, 0x00, 0xe0, 0x49, 0x2d, 0xbf, 0x39, 0x00, 0x00, 0x00,
  0x30, 0x31, 0x5f, 0x4e, 0x4e, 0x5f, 0x53, 0x53, 0x45, 0x5f, 0x52, 0x4d,
  0x53, 0x5f, 0x31, 0x30, 0x5f, 0x76, 0x32, 0x2f, 0x64, 0x65, 0x6e, 0x73,
  0x65, 0x2f, 0x4d, 0x61, 0x74, 0x4d, 0x75, 0x6c, 0x2f, 0x52, 0x65, 0x61,
  0x64, 0x56, 0x61, 0x72, 0x69, 0x61, 0x62, 0x6c, 0x65, 0x4f, 0x70, 0x2f,
  0x74, 0x72, 0x61, 0x6e, 0x73, 0x70, 0x6f, 0x73, 0x65, 0x00, 0x00, 0x00,
  0x02, 0x00, 0x00, 0x00, 0x01, 0x00, 0x00, 0x00, 0x19, 0x00, 0x00, 0x00,
  0x22, 0xfa, 0xff, 0xff, 0x00, 0x00, 0x00, 0x09, 0x74, 0x00, 0x00, 0x00,
  0x0b, 0x00, 0x00, 0x00, 0x44, 0x00, 0x00, 0x00, 0x04, 0x00, 0x00, 0x00,
  0x14, 0xfa, 0xff, 0xff, 0x30, 0x00, 0x00, 0x00, 0x24, 0x00, 0x00, 0x00,
  0x18, 0x00, 0x00, 0x00, 0x04, 0x00, 0x00, 0x00, 0x01, 0x00, 0x00, 0x00,
  0xbe, 0xff, 0xff, 0xff, 0xff, 0xff, 0xff, 0xff, 0x00, 0x00, 0x00, 0x00,
  0x01, 0x00, 0x00, 0x00, 0x6a, 0xf8, 0x0a, 0x3c, 0x01, 0x00, 0x00, 0x00,
  0xc3, 0xb0, 0xd1, 0x3f, 0x01, 0x00, 0x00, 0x00, 0x42, 0x54, 0x06, 0xbf,
  0x21, 0x00, 0x00, 0x00, 0x30, 0x31, 0x5f, 0x4e, 0x4e, 0x5f, 0x53, 0x53,
  0x45, 0x5f, 0x52, 0x4d, 0x53, 0x5f, 0x31, 0x30, 0x5f, 0x76, 0x32, 0x2f,
  0x64, 0x65, 0x6e, 0x73, 0x65, 0x2f, 0x42, 0x69, 0x61, 0x73, 0x41, 0x64,
  0x64, 0x00, 0x00, 0x00, 0x02, 0x00, 0x00, 0x00, 0x01, 0x00, 0x00, 0x00,
  0x01, 0x00, 0x00, 0x00, 0xaa, 0xfa, 0xff, 0xff, 0x00, 0x00, 0x00, 0x02,
  0x94, 0x00, 0x00, 0x00, 0x03, 0x00, 0x00, 0x00, 0x5c, 0x00, 0x00, 0x00,
  0x04, 0x00, 0x00, 0x00, 0xc4, 0xfc, 0xff, 0xff, 0x38, 0x00, 0x00, 0x00,
  0x04, 0x00, 0x00, 0x00, 0x05, 0x00, 0x00, 0x00, 0x00, 0x00, 0x00, 0x00,
  0x00, 0x00, 0x00, 0x00, 0x00, 0x00, 0x00, 0x00, 0x00, 0x00, 0x00, 0x00,
  0x00, 0x00, 0x00, 0x00, 0x00, 0x00, 0x00, 0x00, 0x00, 0x00, 0x00, 0x00,
  0x00, 0x00, 0x00, 0x00, 0x00, 0x00, 0x00, 0x00, 0x00, 0x00, 0x00, 0x00,
  0x00, 0x00, 0x00, 0x00, 0x05, 0x00, 0x00, 0x00, 0xcd, 0x8d, 0x93, 0x38,
  0xb0, 0xb7, 0xc2, 0x38, 0xc8, 0x95, 0x5a, 0x37, 0x0e, 0xcd, 0x54, 0x38,
  0xce, 0x18, 0xbf, 0x37, 0x28, 0x00, 0x00, 0x00, 0x30, 0x31, 0x5f, 0x4e,
  0x4e, 0x5f, 0x53, 0x53, 0x45, 0x5f, 0x52, 0x4d, 0x53, 0x5f, 0x31, 0x30,
  0x5f, 0x76, 0x32, 0x2f, 0x63, 0x6f, 0x6e, 0x76, 0x31, 0x64, 0x5f, 0x31,
  0x2f, 0x63, 0x6f, 0x6e, 0x76, 0x31, 0x64, 0x5f, 0x62, 0x69, 0x61, 0x73,
  0x00, 0x00, 0x00, 0x00, 0x01, 0x00, 0x00, 0x00, 0x05, 0x00, 0x00, 0x00,
  0x4e, 0xfb, 0xff, 0xff, 0x00, 0x00, 0x00, 0x02, 0x4c, 0x00, 0x00, 0x00,
  0x01, 0x00, 0x00, 0x00, 0x0c, 0x00, 0x00, 0x00, 0x04, 0x00, 0x00, 0x00,
  0x50, 0xfc, 0xff, 0xff, 0x31, 0x00, 0x00, 0x00, 0x30, 0x31, 0x5f, 0x4e,
  0x4e, 0x5f, 0x53, 0x53, 0x45, 0x5f, 0x52, 0x4d, 0x53, 0x5f, 0x31, 0x30,
  0x5f, 0x76, 0x32, 0x2f, 0x63, 0x6f, 0x6e, 0x76, 0x31, 0x64, 0x5f, 0x31,
  0x2f, 0x63, 0x6f, 0x6e, 0x76, 0x31, 0x64, 0x2f, 0x53, 0x71, 0x75, 0x65,
  0x65, 0x7a, 0x65, 0x5f, 0x73, 0x68, 0x61, 0x70, 0x65, 0x00, 0x00, 0x00,
  0x01, 0x00, 0x00, 0x00, 0x03, 0x00, 0x00, 0x00, 0xaa, 0xfb, 0xff, 0xff,
  0x00, 0x00, 0x00, 0x09, 0x7c, 0x00, 0x00, 0x00, 0x09, 0x00, 0x00, 0x00,
  0x44, 0x00, 0x00, 0x00, 0x04, 0x00, 0x00, 0x00, 0x9c, 0xfb, 0xff, 0xff,
  0x30, 0x00, 0x00, 0x00, 0x24, 0x00, 0x00, 0x00, 0x18, 0x00, 0x00, 0x00,
  0x04, 0x00, 0x00, 0x00, 0x01, 0x00, 0x00, 0x00, 0x80, 0xff, 0xff, 0xff,
  0xff, 0xff, 0xff, 0xff, 0x00, 0x00, 0x00, 0x00, 0x01, 0x00, 0x00, 0x00,
  0xb4, 0x84, 0x2a, 0x3c, 0x01, 0x00, 0x00, 0x00, 0x2f, 0xda, 0x29, 0x40,
  0x01, 0x00, 0x00, 0x00, 0x00, 0x00, 0x00, 0x00, 0x2b, 0x00, 0x00, 0x00,
  0x30, 0x31, 0x5f, 0x4e, 0x4e, 0x5f, 0x53, 0x53, 0x45, 0x5f, 0x52, 0x4d,
  0x53, 0x5f, 0x31, 0x30, 0x5f, 0x76, 0x32, 0x2f, 0x63, 0x6f, 0x6e, 0x76,
  0x31, 0x64, 0x5f, 0x31, 0x2f, 0x63, 0x6f, 0x6e, 0x76, 0x31, 0x64, 0x2f,
  0x53, 0x71, 0x75, 0x65, 0x65, 0x7a, 0x65, 0x00, 0x04, 0x00, 0x00, 0x00,
  0x01, 0x00, 0x00, 0x00, 0x01, 0x00, 0x00, 0x00, 0x05, 0x00, 0x00, 0x00,
  0x05, 0x00, 0x00, 0x00, 0x00, 0x00, 0x0e, 0x00, 0x1a, 0x00, 0x08, 0x00,
  0x07, 0x00, 0x0c, 0x00, 0x10, 0x00, 0x14, 0x00, 0x0e, 0x00, 0x00, 0x00,
  0x00, 0x00, 0x00, 0x09, 0xec, 0x00, 0x00, 0x00, 0x04, 0x00, 0x00, 0x00,
  0xac, 0x00, 0x00, 0x00, 0x18, 0x00, 0x00, 0x00, 0x00, 0x00, 0x12, 0x00,
  0x18, 0x00, 0x04, 0x00, 0x08, 0x00, 0x0c, 0x00, 0x10, 0x00, 0x00, 0x00,
  0x00, 0x00, 0x14, 0x00, 0x12, 0x00, 0x00, 0x00, 0x74, 0x00, 0x00, 0x00,
  0x58, 0x00, 0x00, 0x00, 0x3c, 0x00, 0x00, 0x00, 0x08, 0x00, 0x00, 0x00,
  0x03, 0x00, 0x00, 0x00, 0x05, 0x00, 0x00, 0x00, 0x00, 0x00, 0x00, 0x00,
  0x00, 0x00, 0x00, 0x00, 0x00, 0x00, 0x00, 0x00, 0x00, 0x00, 0x00, 0x00,
  0x00, 0x00, 0x00, 0x00, 0x00, 0x00, 0x00, 0x00, 0x00, 0x00, 0x00, 0x00,
  0x00, 0x00, 0x00, 0x00, 0x00, 0x00, 0x00, 0x00, 0x00, 0x00, 0x00, 0x00,
  0x00, 0x00, 0x00, 0x00, 0x05, 0x00, 0x00, 0x00, 0xfc, 0xd3, 0x35, 0x3c,
  0x6c, 0xf2, 0x6f, 0x3c, 0xe4, 0xad, 0x06, 0x3b, 0x8e, 0x1d, 0x03, 0x3c,
  0x3d, 0x7c, 0x6b, 0x3b, 0x05, 0x00, 0x00, 0x00, 0x54, 0x68, 0xb4, 0x3f,
  0x96, 0x55, 0x08, 0x3f, 0x88, 0xa0, 0x85, 0x3e, 0x0f, 0xd2, 0xfc, 0x3e,
  0x40, 0xe0, 0x4a, 0xbd, 0x05, 0x00, 0x00, 0x00, 0x84, 0x19, 0x09, 0xbe,
  0x87, 0x12, 0xee, 0xbf, 0x78, 0x6a, 0x30, 0xbd, 0x53, 0x17, 0x82, 0xbf,
  0x45, 0xa5, 0xe9, 0xbe, 0x30, 0x00, 0x00, 0x00, 0x30, 0x31, 0x5f, 0x4e,
  0x4e, 0x5f, 0x53, 0x53, 0x45, 0x5f, 0x52, 0x4d, 0x53, 0x5f, 0x31, 0x30,
  0x5f, 0x76, 0x32, 0x2f, 0x63, 0x6f, 0x6e, 0x76, 0x31, 0x64, 0x5f, 0x31,
  0x2f, 0x63, 0x6f, 0x6e, 0x76, 0x31, 0x64, 0x2f, 0x45, 0x78, 0x70, 0x61,
  0x6e, 0x64, 0x44, 0x69, 0x6d, 0x73, 0x5f, 0x31, 0x00, 0x00, 0x00, 0x00,
  0x04, 0x00, 0x00, 0x00, 0x01, 0x00, 0x00, 0x00, 0x01, 0x00, 0x00, 0x00,
  0x03, 0x00, 0x00, 0x00, 0x05, 0x00, 0x00, 0x00, 0x5a, 0xfd, 0xff, 0xff,
  0x00, 0x00, 0x00, 0x09, 0x74, 0x00, 0x00, 0x00, 0x08, 0x00, 0x00, 0x00,
  0x44, 0x00, 0x00, 0x00, 0x04, 0x00, 0x00, 0x00, 0x4c, 0xfd, 0xff, 0xff,
  0x30, 0x00, 0x00, 0x00, 0x24, 0x00, 0x00, 0x00, 0x18, 0x00, 0x00, 0x00,
  0x04, 0x00, 0x00, 0x00, 0x01, 0x00, 0x00, 0x00, 0x80, 0xff, 0xff, 0xff,
  0xff, 0xff, 0xff, 0xff, 0x00, 0x00, 0x00, 0x00, 0x01, 0x00, 0x00, 0x00,
  0xb4, 0x84, 0x2a, 0x3c, 0x01, 0x00, 0x00, 0x00, 0x2f, 0xda, 0x29, 0x40,
  0x01, 0x00, 0x00, 0x00, 0x00, 0x00, 0x00, 0x00, 0x21, 0x00, 0x00, 0x00,
  0x30, 0x31, 0x5f, 0x4e, 0x4e, 0x5f, 0x53, 0x53, 0x45, 0x5f, 0x52, 0x4d,
  0x53, 0x5f, 0x31, 0x30, 0x5f, 0x76, 0x32, 0x2f, 0x63, 0x6f, 0x6e, 0x76,
  0x31, 0x64, 0x5f, 0x31, 0x2f, 0x52, 0x65, 0x6c, 0x75, 0x00, 0x00, 0x00,
  0x03, 0x00, 0x00, 0x00, 0x01, 0x00, 0x00, 0x00, 0x05, 0x00, 0x00, 0x00,
  0x05, 0x00, 0x00, 0x00, 0xe6, 0xfd, 0xff, 0xff, 0x00, 0x00, 0x00, 0x02,
  0x6c, 0x00, 0x00, 0x00, 0x0a, 0x00, 0x00, 0x00, 0x38, 0x00, 0x00, 0x00,
  0x10, 0x00, 0x00, 0x00, 0x0c, 0x00, 0x0c, 0x00, 0x00, 0x00, 0x00, 0x00,
  0x04, 0x00, 0x08, 0x00, 0x0c, 0x00, 0x00, 0x00, 0x18, 0x00, 0x00, 0x00,
  0x04, 0x00, 0x00, 0x00, 0x01, 0x00, 0x00, 0x00, 0x00, 0x00, 0x00, 0x00,
  0x00, 0x00, 0x00, 0x00, 0x00, 0x00, 0x00, 0x00, 0x01, 0x00, 0x00, 0x00,
  0x48, 0x9a, 0xa6, 0x3a, 0x26, 0x00, 0x00, 0x00, 0x30, 0x31, 0x5f, 0x4e,
  0x4e, 0x5f, 0x53, 0x53, 0x45, 0x5f, 0x52, 0x4d, 0x53, 0x5f, 0x31, 0x30,
  0x5f, 0x76, 0x32, 0x2f, 0x63, 0x6f, 0x6e, 0x76, 0x31, 0x64, 0x2f, 0x63,
  0x6f, 0x6e, 0x76, 0x31, 0x64, 0x5f, 0x62, 0x69, 0x61, 0x73, 0x00, 0x00,
  0x01, 0x00, 0x00, 0x00, 0x01, 0x00, 0x00, 0x00, 0x62, 0xfe, 0xff, 0xff,
  0x00, 0x00, 0x00, 0x09, 0x80, 0x00, 0x00, 0x00, 0x05, 0x00, 0x00, 0x00,
  0x44, 0x00, 0x00, 0x00, 0x04, 0x00, 0x00, 0x00, 0x54, 0xfe, 0xff, 0xff,
  0x30, 0x00, 0x00, 0x00, 0x24, 0x00, 0x00, 0x00, 0x18, 0x00, 0x00, 0x00,
  0x04, 0x00, 0x00, 0x00, 0x01, 0x00, 0x00, 0x00, 0x00, 0x00, 0x00, 0x00,
  0x00, 0x00, 0x00, 0x00, 0x00, 0x00, 0x00, 0x00, 0x01, 0x00, 0x00, 0x00,
  0xc6, 0xed, 0xcd, 0x3b, 0x01, 0x00, 0x00, 0x00, 0xea, 0x51, 0x4c, 0x3f,
  0x01, 0x00, 0x00, 0x00, 0x51, 0xc5, 0xf3, 0xbe, 0x2e, 0x00, 0x00, 0x00,
  0x30, 0x31, 0x5f, 0x4e, 0x4e, 0x5f, 0x53, 0x53, 0x45, 0x5f, 0x52, 0x4d,
  0x53, 0x5f, 0x31, 0x30, 0x5f, 0x76, 0x32, 0x2f, 0x63, 0x6f, 0x6e, 0x76,
  0x31, 0x64, 0x2f, 0x63, 0x6f, 0x6e, 0x76, 0x31, 0x64, 0x2f, 0x45, 0x78,
  0x70, 0x61, 0x6e, 0x64, 0x44, 0x69, 0x6d, 0x73, 0x5f, 0x31, 0x00, 0x00,
  0x04, 0x00, 0x00, 0x00, 0x01, 0x00, 0x00, 0x00, 0x01, 0x00, 0x00, 0x00,
  0x04, 0x00, 0x00, 0x00, 0x03, 0x00, 0x00, 0x00, 0xfe, 0xfe, 0xff, 0xff,
  0x00, 0x00, 0x00, 0x02, 0x50, 0x00, 0x00, 0x00, 0x06, 0x00, 0x00, 0x00,
  0x10, 0x00, 0x00, 0x00, 0x08, 0x00, 0x00, 0x00, 0x04, 0x00, 0x04, 0x00,
  0x04, 0x00, 0x00, 0x00, 0x32, 0x00, 0x00, 0x00, 0x30, 0x31, 0x5f, 0x4e,
  0x4e, 0x5f, 0x53, 0x53, 0x45, 0x5f, 0x52, 0x4d, 0x53, 0x5f, 0x31, 0x30,
  0x5f, 0x76, 0x32, 0x2f, 0x63, 0x6f, 0x6e, 0x76, 0x31, 0x64, 0x2f, 0x63,
  0x6f, 0x6e, 0x76, 0x31, 0x64, 0x2f, 0x45, 0x78, 0x70, 0x61, 0x6e, 0x64,
  0x44, 0x69, 0x6d, 0x73, 0x2f, 0x64, 0x69, 0x6d, 0x5f, 0x30, 0x00, 0x00,
  0x02, 0x00, 0x00, 0x00, 0x01, 0x00, 0x00, 0x00, 0x04, 0x00, 0x00, 0x00,
  0x62, 0xff, 0xff, 0xff, 0x00, 0x00, 0x00, 0x09, 0x80, 0x00, 0x00, 0x00,
  0x0e, 0x00, 0x00, 0x00, 0x44, 0x00, 0x00, 0x00, 0x04, 0x00, 0x00, 0x00,
  0x54, 0xff, 0xff, 0xff, 0x30, 0x00, 0x00, 0x00, 0x24, 0x00, 0x00, 0x00,
  0x18, 0x00, 0x00, 0x00, 0x04, 0x00, 0x00, 0x00, 0x01, 0x00, 0x00, 0x00,
  0x76, 0x00, 0x00, 0x00, 0x00, 0x00, 0x00, 0x00, 0x00, 0x00, 0x00, 0x00,
  0x01, 0x00, 0x00, 0x00, 0x9e, 0x1c, 0x4f, 0x3e, 0x01, 0x00, 0x00, 0x00,
  0x53, 0x7c, 0xe8, 0x3f, 0x01, 0x00, 0x00, 0x00, 0x9e, 0x09, 0x47, 0xc2,
  0x2c, 0x00, 0x00, 0x00, 0x30, 0x31, 0x5f, 0x4e, 0x4e, 0x5f, 0x53, 0x53,
  0x45, 0x5f, 0x52, 0x4d, 0x53, 0x5f, 0x31, 0x30, 0x5f, 0x76, 0x32, 0x2f,
  0x63, 0x6f, 0x6e, 0x76, 0x31, 0x64, 0x2f, 0x63, 0x6f, 0x6e, 0x76, 0x31,
  0x64, 0x2f, 0x45, 0x78, 0x70, 0x61, 0x6e, 0x64, 0x44, 0x69, 0x6d, 0x73,
  0x00, 0x00, 0x00, 0x00, 0x04, 0x00, 0x00, 0x00, 0x01, 0x00, 0x00, 0x00,
  0x01, 0x00, 0x00, 0x00, 0x0a, 0x00, 0x00, 0x00, 0x03, 0x00, 0x00, 0x00,
  0x00, 0x00, 0x0e, 0x00, 0x18, 0x00, 0x08, 0x00, 0x07, 0x00, 0x0c, 0x00,
  0x10, 0x00, 0x14, 0x00, 0x0e, 0x00, 0x00, 0x00, 0x00, 0x00, 0x00, 0x09,
  0x78, 0x00, 0x00, 0x00, 0x0f, 0x00, 0x00, 0x00, 0x4c, 0x00, 0x00, 0x00,
  0x10, 0x00, 0x00, 0x00, 0x0c, 0x00, 0x14, 0x00, 0x04, 0x00, 0x08, 0x00,
  0x0c, 0x00, 0x10, 0x00, 0x0c, 0x00, 0x00, 0x00, 0x2c, 0x00, 0x00, 0x00,
  0x20, 0x00, 0x00, 0x00, 0x14, 0x00, 0x00, 0x00, 0x04, 0x00, 0x00, 0x00,
  0x01, 0x00, 0x00, 0x00, 0x80, 0xff, 0xff, 0xff, 0xff, 0xff, 0xff, 0xff,
  0x01, 0x00, 0x00, 0x00, 0x9f, 0xbe, 0xcf, 0x3b, 0x01, 0x00, 0x00, 0x00,
  0xe0, 0xee, 0xce, 0x3f, 0x01, 0x00, 0x00, 0x00, 0x00, 0x00, 0x00, 0x00,
  0x1f, 0x00, 0x00, 0x00, 0x30, 0x31, 0x5f, 0x4e, 0x4e, 0x5f, 0x53, 0x53,
  0x45, 0x5f, 0x52, 0x4d, 0x53, 0x5f, 0x31, 0x30, 0x5f, 0x76, 0x32, 0x2f,
  0x63, 0x6f, 0x6e, 0x76, 0x31, 0x64, 0x2f, 0x52, 0x65, 0x6c, 0x75, 0x00,
  0x04, 0x00, 0x00, 0x00, 0x01, 0x00, 0x00, 0x00, 0x01, 0x00, 0x00, 0x00,
  0x07, 0x00, 0x00, 0x00, 0x01, 0x00, 0x00, 0x00, 0x05, 0x00, 0x00, 0x00,
  0x60, 0x00, 0x00, 0x00, 0x44, 0x00, 0x00, 0x00, 0x28, 0x00, 0x00, 0x00,
  0x1c, 0x00, 0x00, 0x00, 0x04, 0x00, 0x00, 0x00, 0xd6, 0xff, 0xff, 0xff,
  0x00, 0x00, 0x00, 0x1c, 0x02, 0x00, 0x00, 0x00, 0x00, 0x00, 0x06, 0x00,
  0x08, 0x00, 0x07, 0x00, 0x06, 0x00, 0x00, 0x00, 0x00, 0x00, 0x00, 0x16,
  0xf2, 0xff, 0xff, 0xff, 0x00, 0x00, 0x00, 0x09, 0x04, 0x00, 0x00, 0x00,
  0x00, 0x00, 0x0a, 0x00, 0x0e, 0x00, 0x07, 0x00, 0x00, 0x00, 0x08, 0x00,
  0x0a, 0x00, 0x00, 0x00, 0x00, 0x00, 0x00, 0x04, 0x03, 0x00, 0x00, 0x00,
  0x00, 0x00, 0x0a, 0x00, 0x0c, 0x00, 0x07, 0x00, 0x00, 0x00, 0x08, 0x00,
  0x0a, 0x00, 0x00, 0x00, 0x00, 0x00, 0x00, 0x03, 0x03, 0x00, 0x00, 0x00
 
};

#endif //NN_SSE_RMS_10_V2_H